unsigned char fraud_model_tflite[] = {
  0x1c, 0x00, 0x00, 0x00, 0x54, 0x46, 0x4c, 0x33, 0x14, 0x00, 0x20, 0x00,
  0x1c, 0x00, 0x18, 0x00, 0x14, 0x00, 0x10, 0x00, 0x0c, 0x00, 0x00, 0x00,
  0x08, 0x00, 0x04, 0x00, 0x14, 0x00, 0x00, 0x00, 0x1c, 0x00, 0x00, 0x00,
  0x88, 0x00, 0x00, 0x00, 0xe0, 0x00, 0x00, 0x00, 0x0c, 0x0c, 0x00, 0x00,
  0x1c, 0x0c, 0x00, 0x00, 0xb0, 0x11, 0x00, 0x00, 0x03, 0x00, 0x00, 0x00,
  0x01, 0x00, 0x00, 0x00, 0x04, 0x00, 0x00, 0x00, 0xa6, 0xf3, 0xff, 0xff,
  0x0c, 0x00, 0x00, 0x00, 0x1c, 0x00, 0x00, 0x00, 0x3c, 0x00, 0x00, 0x00,
  0x0f, 0x00, 0x00, 0x00, 0x73, 0x65, 0x72, 0x76, 0x69, 0x6e, 0x67, 0x5f,
  0x64, 0x65, 0x66, 0x61, 0x75, 0x6c, 0x74, 0x00, 0x01, 0x00, 0x00, 0x00,
  0x04, 0x00, 0x00, 0x00, 0x94, 0xff, 0xff, 0xff, 0x0a, 0x00, 0x00, 0x00,
  0x04, 0x00, 0x00, 0x00, 0x08, 0x00, 0x00, 0x00, 0x6f, 0x75, 0x74, 0x70,
  0x75, 0x74, 0x5f, 0x30, 0x00, 0x00, 0x00, 0x00, 0x01, 0x00, 0x00, 0x00,
  0x04, 0x00, 0x00, 0x00, 0x96, 0xf4, 0xff, 0xff, 0x04, 0x00, 0x00, 0x00,
  0x0b, 0x00, 0x00, 0x00, 0x69, 0x6e, 0x70, 0x75, 0x74, 0x5f, 0x6c, 0x61,
  0x79, 0x65, 0x72, 0x00, 0x02, 0x00, 0x00, 0x00, 0x34, 0x00, 0x00, 0x00,
  0x04, 0x00, 0x00, 0x00, 0xdc, 0xff, 0xff, 0xff, 0x0d, 0x00, 0x00, 0x00,
  0x04, 0x00, 0x00, 0x00, 0x13, 0x00, 0x00, 0x00, 0x43, 0x4f, 0x4e, 0x56,
  0x45, 0x52, 0x53, 0x49, 0x4f, 0x4e, 0x5f, 0x4d, 0x45, 0x54, 0x41, 0x44,
  0x41, 0x54, 0x41, 0x00, 0x08, 0x00, 0x0c, 0x00, 0x08, 0x00, 0x04, 0x00,
  0x08, 0x00, 0x00, 0x00, 0x0c, 0x00, 0x00, 0x00, 0x04, 0x00, 0x00, 0x00,
  0x13, 0x00, 0x00, 0x00, 0x6d, 0x69, 0x6e, 0x5f, 0x72, 0x75, 0x6e, 0x74,
  0x69, 0x6d, 0x65, 0x5f, 0x76, 0x65, 0x72, 0x73, 0x69, 0x6f, 0x6e, 0x00,
  0x0e, 0x00, 0x00, 0x00, 0x28, 0x0b, 0x00, 0x00, 0x20, 0x0b, 0x00, 0x00,
  0xf0, 0x0a, 0x00, 0x00, 0xd8, 0x08, 0x00, 0x00, 0xc4, 0x08, 0x00, 0x00,
  0x94, 0x08, 0x00, 0x00, 0x44, 0x08, 0x00, 0x00, 0xb4, 0x00, 0x00, 0x00,
  0xac, 0x00, 0x00, 0x00, 0xa4, 0x00, 0x00, 0x00, 0x9c, 0x00, 0x00, 0x00,
  0x94, 0x00, 0x00, 0x00, 0x74, 0x00, 0x00, 0x00, 0x04, 0x00, 0x00, 0x00,
  0x46, 0xf5, 0xff, 0xff, 0x04, 0x00, 0x00, 0x00, 0x60, 0x00, 0x00, 0x00,
  0x0c, 0x00, 0x00, 0x00, 0x08, 0x00, 0x0e, 0x00, 0x08, 0x00, 0x04, 0x00,
  0x08, 0x00, 0x00, 0x00, 0x10, 0x00, 0x00, 0x00, 0x28, 0x00, 0x00, 0x00,
  0x00, 0x00, 0x06, 0x00, 0x08, 0x00, 0x04, 0x00, 0x06, 0x00, 0x00, 0x00,
  0x04, 0x00, 0x00, 0x00, 0x01, 0x00, 0x00, 0x00, 0xea, 0x03, 0x00, 0x00,
  0x0c, 0x00, 0x18, 0x00, 0x14, 0x00, 0x10, 0x00, 0x0c, 0x00, 0x04, 0x00,
  0x0c, 0x00, 0x00, 0x00, 0xc1, 0x8a, 0x1a, 0x35, 0xc0, 0x7d, 0x29, 0x7d,
  0x02, 0x00, 0x00, 0x00, 0x02, 0x00, 0x00, 0x00, 0x04, 0x00, 0x00, 0x00,
  0x06, 0x00, 0x00, 0x00, 0x32, 0x2e, 0x31, 0x39, 0x2e, 0x30, 0x00, 0x00,
  0xb2, 0xf5, 0xff, 0xff, 0x04, 0x00, 0x00, 0x00, 0x10, 0x00, 0x00, 0x00,
  0x31, 0x2e, 0x31, 0x34, 0x2e, 0x30, 0x00, 0x00, 0x00, 0x00, 0x00, 0x00,
  0x00, 0x00, 0x00, 0x00, 0x20, 0xf0, 0xff, 0xff, 0x24, 0xf0, 0xff, 0xff,
  0x28, 0xf0, 0xff, 0xff, 0x2c, 0xf0, 0xff, 0xff, 0xde, 0xf5, 0xff, 0xff,
  0x04, 0x00, 0x00, 0x00, 0x80, 0x07, 0x00, 0x00, 0xa4, 0xc6, 0x8a, 0x3e,
  0x90, 0x90, 0x05, 0x3e, 0xee, 0x7a, 0x79, 0xbe, 0x11, 0xd9, 0x29, 0x3e,
  0x40, 0x9b, 0xc5, 0xbe, 0x5a, 0xa4, 0x29, 0xbb, 0xc7, 0x6b, 0xc4, 0x3d,
  0xbe, 0x36, 0xf1, 0x3d, 0x7b, 0x23, 0x5b, 0x3e, 0x5b, 0x81, 0x94, 0xbd,
  0x0d, 0xd3, 0x7d, 0x3e, 0x98, 0xd2, 0xe8, 0xbc, 0xd8, 0x94, 0x96, 0xbe,
  0x72, 0xef, 0xad, 0x3e, 0x0b, 0x8e, 0xc3, 0x3d, 0x86, 0x9e, 0x8e, 0xbe,
  0x79, 0xdf, 0xba, 0x3e, 0x95, 0x8a, 0xbc, 0x3e, 0xe0, 0x45, 0x9e, 0x3d,
  0x4d, 0x75, 0x3d, 0x3e, 0x54, 0xd9, 0x35, 0x3d, 0xd8, 0x6c, 0x92, 0x3e,
  0x7d, 0x71, 0x6e, 0x3e, 0x81, 0x31, 0xa5, 0xbd, 0x9b, 0x23, 0xa7, 0xbe,
  0xee, 0x4b, 0x72, 0x3e, 0xd7, 0x92, 0x32, 0x3e, 0x3f, 0xdc, 0x7c, 0xbe,
  0x0a, 0xf4, 0x52, 0xbe, 0x30, 0x3a, 0x2d, 0x3d, 0xd5, 0x97, 0x82, 0xbe,
  0xb3, 0x50, 0x79, 0x3e, 0x2e, 0x6e, 0xaf, 0xbe, 0x74, 0x2c, 0x26, 0xbe,
  0x32, 0xcb, 0x06, 0x3e, 0xaf, 0x83, 0x84, 0xbe, 0xc2, 0x73, 0xff, 0xbc,
  0xf2, 0x64, 0xb8, 0x3e, 0x9a, 0x63, 0x02, 0x3e, 0x7d, 0xf4, 0xb3, 0x3e,
  0xab, 0x6d, 0x90, 0xbe, 0xfe, 0x37, 0x20, 0xbe, 0xaa, 0x76, 0x94, 0x3e,
  0x94, 0x84, 0xa0, 0xbd, 0x7b, 0x4c, 0xd9, 0x3d, 0xb4, 0xc4, 0x66, 0xbe,
  0xfa, 0xd9, 0x95, 0xbe, 0x94, 0x30, 0xf8, 0xbd, 0xbc, 0x6e, 0x45, 0x3d,
  0x97, 0xf3, 0x2d, 0xbd, 0x0f, 0x58, 0x19, 0xbe, 0xce, 0xde, 0x80, 0x3e,
  0xae, 0x1b, 0x40, 0xbe, 0x59, 0xef, 0x07, 0x3e, 0x87, 0xd9, 0x91, 0x3b,
  0x0c, 0x10, 0x4f, 0x3e, 0x0d, 0x50, 0x36, 0xbe, 0x94, 0xfc, 0x81, 0x3e,
  0x3b, 0x1c, 0x7e, 0xbe, 0x5c, 0xfc, 0x8b, 0x3e, 0xa0, 0xe8, 0x4c, 0x3e,
  0x05, 0x2a, 0x00, 0xbe, 0x17, 0x8f, 0x54, 0x3e, 0xce, 0x24, 0xc3, 0x3d,
  0x83, 0x8d, 0xab, 0x3e, 0x57, 0x35, 0x37, 0x3e, 0xb2, 0xc7, 0xf2, 0x3d,
  0x27, 0x6c, 0x93, 0xbe, 0xe3, 0xb4, 0x1b, 0x3e, 0xc1, 0xdb, 0xb3, 0xbd,
  0xba, 0xc1, 0x83, 0x3e, 0x84, 0x3b, 0x53, 0xbd, 0x38, 0x6d, 0xc5, 0xbe,
  0x9a, 0xfa, 0x2b, 0xbe, 0x1a, 0x75, 0x00, 0x3d, 0x33, 0xef, 0x76, 0x3e,
  0x49, 0xcf, 0xba, 0x3c, 0xed, 0xad, 0x20, 0xbe, 0x22, 0x0f, 0x18, 0xbe,
  0xc7, 0xc4, 0x30, 0x3e, 0x84, 0xb3, 0xce, 0x3e, 0x54, 0x1c, 0xbd, 0x3c,
  0xca, 0xf2, 0x5f, 0xbe, 0x28, 0xb1, 0xbf, 0x3b, 0x6f, 0x2c, 0x8c, 0x3d,
  0xd8, 0x15, 0xbf, 0xbd, 0xbb, 0x3c, 0xdf, 0xbd, 0xeb, 0x22, 0x03, 0x3d,
  0x04, 0xd6, 0x0b, 0x3e, 0x3d, 0x6d, 0xb2, 0x3e, 0xe4, 0x1f, 0xb8, 0xbd,
  0x06, 0xd7, 0x11, 0x3e, 0x96, 0x9d, 0x81, 0xbe, 0xf8, 0x98, 0x17, 0x3e,
  0xe5, 0x13, 0x9a, 0x3e, 0x1c, 0x3d, 0xc5, 0x3d, 0x5c, 0x09, 0xb4, 0x3e,
  0x2c, 0x8a, 0xcf, 0x3d, 0xd1, 0x3c, 0x9f, 0xbc, 0x32, 0xf8, 0x08, 0x3e,
  0x2d, 0x2b, 0x8e, 0xbb, 0x00, 0x1a, 0x94, 0x3d, 0xb9, 0xd1, 0xd1, 0x3d,
  0x29, 0xd2, 0xa7, 0x3e, 0x2a, 0x61, 0x9f, 0xbe, 0xc3, 0xbf, 0x1a, 0xbd,
  0x44, 0xc0, 0x63, 0x3c, 0x2f, 0xde, 0xaf, 0x3e, 0x91, 0x6d, 0x75, 0x3c,
  0xa2, 0x06, 0x97, 0x3c, 0x73, 0x76, 0x93, 0xbe, 0xbd, 0x61, 0xaf, 0x3e,
  0x07, 0x33, 0xb3, 0xbe, 0x65, 0x4d, 0x7a, 0x3e, 0x41, 0x35, 0x78, 0x3e,
  0x3c, 0x08, 0x44, 0x3c, 0x4c, 0xe8, 0x21, 0xbe, 0x8a, 0x2f, 0x72, 0x3e,
  0x94, 0xb2, 0x7f, 0x3e, 0x7f, 0x05, 0x61, 0x3e, 0x16, 0x52, 0x8d, 0x3e,
  0x88, 0x7a, 0x84, 0xbe, 0xb4, 0xc9, 0x93, 0xbd, 0x6e, 0x8d, 0x8e, 0x3d,
  0x62, 0x5f, 0x9c, 0xbe, 0x68, 0x8d, 0x5d, 0xbe, 0x73, 0xdd, 0x2e, 0x3d,
  0xe1, 0x02, 0x0f, 0x3e, 0x5f, 0x72, 0xe3, 0xbd, 0x62, 0x2f, 0x8a, 0x3e,
  0x92, 0x08, 0x1f, 0xbe, 0xc9, 0x46, 0x1f, 0xbe, 0x05, 0x90, 0x36, 0x3e,
  0xea, 0x05, 0x43, 0xbe, 0x1b, 0x12, 0x86, 0x3e, 0x5b, 0x83, 0xa8, 0xbe,
  0xe7, 0x5f, 0xfa, 0xbc, 0xac, 0xe3, 0x53, 0x3b, 0x12, 0x49, 0xb7, 0x3e,
  0xc4, 0x00, 0x54, 0x3e, 0x1e, 0x49, 0x97, 0x3e, 0xe2, 0x11, 0x85, 0xbe,
  0xe5, 0x95, 0x09, 0x3e, 0x18, 0xf9, 0xee, 0xbc, 0xa0, 0xc7, 0x4f, 0xbe,
  0xf3, 0x53, 0x8a, 0xbe, 0x97, 0x74, 0x3b, 0x3e, 0x13, 0x1a, 0x18, 0xbe,
  0xe2, 0xc9, 0x9a, 0xbc, 0x50, 0xe6, 0xb9, 0x3d, 0xa0, 0xe0, 0x61, 0x3e,
  0xcf, 0x7d, 0x0a, 0x3e, 0xbd, 0xa2, 0xca, 0xbd, 0xd7, 0x76, 0xbd, 0x3e,
  0x94, 0x31, 0x8b, 0xbc, 0x8d, 0x1c, 0x50, 0xbe, 0xa8, 0x99, 0xb4, 0x3e,
  0xb4, 0x27, 0xb9, 0x3e, 0x03, 0xa8, 0xa4, 0x3e, 0x81, 0x5a, 0x02, 0x3e,
  0x29, 0x67, 0x8c, 0xbe, 0x53, 0x3d, 0x4a, 0x3e, 0xea, 0x39, 0x36, 0xbe,
  0x4c, 0x9a, 0x1e, 0xbd, 0xc5, 0x44, 0xa5, 0x3e, 0xf0, 0xac, 0x00, 0x3e,
  0x06, 0x2a, 0x4a, 0xbe, 0xf0, 0xb6, 0x4f, 0xbd, 0xba, 0xb3, 0xc4, 0x3d,
  0x4c, 0xae, 0x26, 0xbd, 0x46, 0xfe, 0x29, 0xbe, 0x54, 0x3d, 0x9b, 0xbe,
  0xc3, 0xa7, 0x1a, 0xbd, 0x46, 0x2f, 0xd8, 0x3c, 0xd9, 0xa0, 0x45, 0xbe,
  0x43, 0xbd, 0x9c, 0x3c, 0xb3, 0xeb, 0x31, 0x3e, 0x8f, 0xed, 0x05, 0x3e,
  0xce, 0xfb, 0xa9, 0x3e, 0x49, 0x61, 0x22, 0x3c, 0x1c, 0xa7, 0x4b, 0xbe,
  0x5c, 0xc1, 0x48, 0xbe, 0x43, 0xf3, 0x68, 0xbd, 0xbb, 0xdb, 0x80, 0xbc,
  0x5d, 0x56, 0xb0, 0xbe, 0x26, 0x27, 0x0d, 0x3e, 0x8b, 0x54, 0x7b, 0xbe,
  0x9e, 0x02, 0xa4, 0xbd, 0x3d, 0x77, 0x81, 0xbe, 0xe5, 0xe5, 0xb2, 0xbd,
  0xdd, 0xcc, 0xf3, 0x3d, 0xfd, 0xe1, 0xbb, 0xbd, 0x95, 0x3e, 0x71, 0xbe,
  0x94, 0x4b, 0xce, 0x3a, 0x6f, 0xdf, 0x84, 0xbe, 0x1e, 0x92, 0xab, 0xbd,
  0x5a, 0x06, 0xb1, 0xbe, 0x25, 0x23, 0x17, 0x3d, 0xba, 0x78, 0xa6, 0x3e,
  0xac, 0xbb, 0xa1, 0x3e, 0x53, 0xc2, 0xd2, 0x3d, 0xec, 0xad, 0xc7, 0xbc,
  0x4d, 0x09, 0x96, 0x3e, 0xbf, 0x38, 0xb7, 0xbe, 0x18, 0xf3, 0x90, 0x3e,
  0x16, 0x02, 0x01, 0x3e, 0x6e, 0x1a, 0xdd, 0x3c, 0x00, 0xb0, 0xa2, 0xbe,
  0x61, 0x83, 0x81, 0x3e, 0xb1, 0x37, 0x33, 0x3e, 0x52, 0x27, 0xb1, 0xbd,
  0xf5, 0x49, 0x05, 0xbe, 0xcd, 0x69, 0x23, 0xbe, 0xe3, 0x25, 0x65, 0xbe,
  0x05, 0x90, 0x9e, 0xbe, 0x10, 0x20, 0x85, 0x3e, 0x38, 0x09, 0x48, 0xbe,
  0x52, 0xfd, 0x2d, 0x3e, 0xb9, 0xfa, 0x63, 0x3d, 0xc2, 0xbf, 0x64, 0x3e,
  0xcd, 0x0d, 0xee, 0xbd, 0x6a, 0x0c, 0xa7, 0xbe, 0x16, 0x3f, 0x2c, 0x3d,
  0xa6, 0x59, 0x70, 0x3e, 0x25, 0x7e, 0x0a, 0xbe, 0xc5, 0x02, 0xa9, 0x3e,
  0xdb, 0x10, 0x21, 0xbd, 0xbe, 0x07, 0xaf, 0x3b, 0x66, 0xbe, 0x64, 0x3e,
  0x20, 0xf1, 0x26, 0x3e, 0x32, 0x65, 0x9a, 0x3e, 0x66, 0x35, 0xb1, 0xbe,
  0x1e, 0xb6, 0x50, 0xbd, 0xb2, 0xd1, 0x0e, 0x3e, 0x45, 0x9d, 0x95, 0xbc,
  0xd6, 0xae, 0xb9, 0xbe, 0xb6, 0x59, 0x47, 0x3e, 0xfa, 0x15, 0x8d, 0x3e,
  0x0d, 0x54, 0x41, 0xbe, 0x26, 0xb8, 0x5a, 0x3e, 0x8e, 0x85, 0x9f, 0xbe,
  0xb8, 0x22, 0x42, 0xbd, 0xc4, 0x91, 0x80, 0xbe, 0xea, 0x39, 0x4b, 0x3e,
  0xe1, 0xe3, 0x0c, 0xbe, 0xe4, 0xe3, 0xce, 0xbd, 0x61, 0x3b, 0x8c, 0xbe,
  0x7e, 0xcf, 0x93, 0xbe, 0xdb, 0xea, 0x82, 0x3e, 0x56, 0x0b, 0x5b, 0x3e,
  0x08, 0xd6, 0xd1, 0x3d, 0x9e, 0x2c, 0x63, 0xbe, 0xbc, 0x0a, 0xad, 0x3d,
  0x26, 0xaa, 0xf9, 0xbd, 0x40, 0xbc, 0xf9, 0x3d, 0x5d, 0xe8, 0xa1, 0x3e,
  0xcc, 0x4d, 0x0c, 0x3e, 0x7c, 0x2d, 0x87, 0xbd, 0x18, 0xca, 0x9b, 0xbd,
  0x18, 0x44, 0x5c, 0xbe, 0x6f, 0x79, 0x9a, 0xbe, 0x08, 0x09, 0x2e, 0x3d,
  0x4c, 0x09, 0xab, 0xbd, 0x34, 0x2e, 0x0b, 0x3e, 0xa0, 0x6a, 0x99, 0x3d,
  0x4e, 0xe4, 0x77, 0x3e, 0x30, 0x6f, 0xa5, 0xbd, 0x12, 0x2c, 0x49, 0x3e,
  0x06, 0x5c, 0x14, 0x3e, 0x4a, 0x5b, 0x03, 0x3e, 0x9c, 0x40, 0x28, 0xbc,
  0x5d, 0xf0, 0xaa, 0xbc, 0x30, 0x36, 0x07, 0x3e, 0xf6, 0x52, 0xb2, 0x3e,
  0x7a, 0xa6, 0x69, 0xbe, 0x8a, 0x6f, 0xf7, 0x3c, 0x31, 0xbb, 0x86, 0xbe,
  0xed, 0xc9, 0x01, 0xbe, 0x82, 0x70, 0xa7, 0xbd, 0x01, 0xfa, 0xc5, 0x3e,
  0xd6, 0xff, 0x71, 0xbe, 0x85, 0xe6, 0xf2, 0xbd, 0x72, 0xd5, 0x31, 0x3d,
  0x83, 0x48, 0x03, 0xbe, 0x30, 0xaf, 0xc6, 0x3e, 0x5c, 0x13, 0x07, 0x3d,
  0x1b, 0xcc, 0x67, 0x3e, 0x09, 0x60, 0xd0, 0xbc, 0x28, 0xb9, 0x96, 0xbd,
  0x26, 0x72, 0x3b, 0x3e, 0xda, 0x65, 0x82, 0xbe, 0x77, 0x42, 0x43, 0xbe,
  0xf8, 0x31, 0xf5, 0xbd, 0xa7, 0xd8, 0x68, 0x3e, 0x91, 0x94, 0x65, 0x3e,
  0xe8, 0xbc, 0x6f, 0x3e, 0xa0, 0x01, 0x72, 0x3d, 0x7a, 0x57, 0x97, 0x3e,
  0x8d, 0xa7, 0x65, 0xbe, 0x20, 0xda, 0xb3, 0x3d, 0x81, 0xab, 0x45, 0xbe,
  0xb5, 0x7d, 0x86, 0x3e, 0x58, 0xaa, 0x26, 0xbe, 0x3c, 0x05, 0x90, 0xbe,
  0x95, 0xe1, 0xb2, 0xbe, 0xa5, 0xbf, 0x87, 0x3e, 0x68, 0xc4, 0xaa, 0x3d,
  0x81, 0xa9, 0x9b, 0xbe, 0x04, 0x7e, 0xa2, 0xbe, 0x80, 0x1d, 0x65, 0x3b,
  0xbc, 0x15, 0xf8, 0x3d, 0x99, 0xee, 0x89, 0x3e, 0x0b, 0x85, 0x9e, 0x3e,
  0xbc, 0x68, 0xe5, 0x3d, 0x79, 0xb1, 0xaa, 0x3e, 0x45, 0xf3, 0x3d, 0xbe,
  0x48, 0xf6, 0x8c, 0x3d, 0x20, 0x28, 0x1d, 0x3d, 0x53, 0x2d, 0x2e, 0xbe,
  0x84, 0xe1, 0x42, 0xbe, 0xc5, 0xb3, 0xa9, 0x3e, 0xb5, 0x6d, 0xa5, 0x3e,
  0xbd, 0xb7, 0x91, 0x3e, 0x3a, 0x69, 0x2f, 0xbe, 0x72, 0x4e, 0x2d, 0xbe,
  0x0b, 0x23, 0xa5, 0x3e, 0x4d, 0xc8, 0xaa, 0xbe, 0x82, 0xa3, 0x66, 0xbe,
  0x78, 0xe7, 0xb5, 0x3d, 0xf8, 0x0f, 0x50, 0xbe, 0xb0, 0xb4, 0xce, 0x3d,
  0x1e, 0xc4, 0x90, 0x3e, 0x6d, 0x76, 0xbe, 0x3e, 0xd6, 0x6b, 0x87, 0xbe,
  0xfc, 0xab, 0xa4, 0xbe, 0x13, 0x90, 0x85, 0x3e, 0x0d, 0x81, 0x95, 0xbe,
  0xc9, 0xe8, 0x5f, 0xbe, 0x33, 0xa0, 0xb7, 0x3e, 0x38, 0x9f, 0xa5, 0xbc,
  0x2c, 0x71, 0x02, 0xbd, 0x8a, 0x15, 0x64, 0x3e, 0xe3, 0x1e, 0x27, 0xbe,
  0x91, 0xa1, 0x6a, 0xbe, 0xcc, 0x64, 0xaa, 0x3e, 0x5b, 0x2d, 0x1b, 0x3e,
  0x3c, 0xb0, 0xf4, 0x3d, 0x85, 0x13, 0x27, 0xbc, 0x98, 0x79, 0x30, 0x3e,
  0x96, 0x03, 0x5c, 0x3d, 0xe2, 0x7f, 0x5a, 0x3e, 0x63, 0x59, 0xf3, 0x3d,
  0x73, 0xb9, 0x9b, 0xbd, 0xb8, 0x1e, 0x84, 0x3e, 0x39, 0xa4, 0x75, 0xbd,
  0x6e, 0x34, 0x1d, 0x3e, 0xe5, 0x2f, 0x8e, 0x3e, 0x62, 0x0a, 0x74, 0x3e,
  0x19, 0x09, 0x72, 0xbe, 0x2e, 0x69, 0xc0, 0x3e, 0x74, 0x53, 0xd0, 0x3d,
  0x75, 0x8f, 0xbc, 0xbd, 0xa8, 0x27, 0x97, 0x3e, 0xb3, 0xd0, 0x7c, 0x3e,
  0xeb, 0xfb, 0xc4, 0xbe, 0x6f, 0xc3, 0xb0, 0x3e, 0x3e, 0xe9, 0x54, 0x3e,
  0x76, 0x37, 0x87, 0xbe, 0x85, 0x92, 0x88, 0xbe, 0xd6, 0x52, 0x7f, 0x3e,
  0x59, 0x14, 0xc3, 0x3a, 0xe5, 0x90, 0xfb, 0xbd, 0xea, 0x24, 0xa5, 0x3e,
  0x9a, 0xf4, 0x86, 0x3e, 0xc2, 0xad, 0xa4, 0xbd, 0x2b, 0x24, 0x3d, 0xbc,
  0xee, 0xbd, 0x9d, 0x3e, 0x77, 0x4b, 0x8f, 0x3e, 0xd7, 0x07, 0x21, 0x3d,
  0xcf, 0xb4, 0x33, 0x3e, 0x65, 0x4b, 0x3d, 0xbe, 0xb7, 0x6c, 0x94, 0xbe,
  0xb5, 0xf2, 0x09, 0xbe, 0xe1, 0x35, 0x2b, 0x3e, 0x24, 0x22, 0x1f, 0xbe,
  0x22, 0x6b, 0xa8, 0xbc, 0xe0, 0x5a, 0xbb, 0xbe, 0x7a, 0x20, 0xc0, 0x3d,
  0xa3, 0x28, 0x79, 0x3d, 0xac, 0x6d, 0x13, 0x3e, 0xc2, 0x0b, 0xfb, 0x3d,
  0xcf, 0xf4, 0x53, 0x3e, 0x1e, 0x16, 0x17, 0xbe, 0x23, 0x67, 0x8e, 0xbe,
  0x7f, 0x6c, 0x84, 0xbe, 0xc5, 0xa9, 0xae, 0xbe, 0xd9, 0x00, 0xa7, 0xbe,
  0x56, 0x3a, 0xb2, 0xbd, 0x2e, 0x25, 0xd9, 0x3d, 0xfc, 0x20, 0xc5, 0xbd,
  0xf8, 0x49, 0x1c, 0x3e, 0x42, 0x36, 0x97, 0xbb, 0x52, 0x51, 0x9e, 0x3e,
  0x4a, 0x4a, 0xc4, 0xbe, 0xf8, 0x97, 0xb7, 0xbe, 0x87, 0x5b, 0x57, 0xbe,
  0xa2, 0x12, 0x87, 0xbd, 0xc9, 0x31, 0x61, 0xbc, 0x6f, 0x04, 0x0e, 0xbe,
  0x86, 0x57, 0x53, 0x3e, 0x58, 0xf3, 0x81, 0xbe, 0x89, 0x6a, 0x62, 0x3e,
  0x51, 0xd8, 0xbe, 0xbc, 0x7f, 0xa5, 0x46, 0x3d, 0x6c, 0x94, 0xf0, 0xbd,
  0xa1, 0xdb, 0xc5, 0xba, 0x3a, 0xfd, 0xff, 0xbd, 0xf8, 0xf3, 0x7c, 0x3d,
  0x7c, 0x1a, 0xad, 0x3e, 0x16, 0x89, 0xbf, 0x3e, 0x77, 0x91, 0x83, 0xbe,
  0x62, 0xa3, 0x5b, 0x3e, 0x3e, 0x9f, 0x73, 0x3e, 0xe9, 0xce, 0x97, 0x3e,
  0x40, 0xa7, 0x10, 0x3c, 0x38, 0x38, 0x60, 0xbd, 0x3f, 0x87, 0x8f, 0x3e,
  0xb0, 0x7e, 0x43, 0xbe, 0x11, 0xfd, 0xb2, 0xbe, 0xfe, 0x19, 0x89, 0xbe,
  0xe3, 0xaa, 0x9c, 0xbe, 0x8a, 0x07, 0x47, 0x3e, 0x18, 0x21, 0x80, 0x3d,
  0xe0, 0x5b, 0xd5, 0x3c, 0x1e, 0xaf, 0x28, 0x3e, 0xd8, 0xd0, 0x54, 0xbe,
  0xac, 0x9b, 0xac, 0x3d, 0xd2, 0xed, 0x1b, 0x3e, 0xf0, 0xaa, 0xed, 0x3c,
  0x18, 0x61, 0x24, 0x3d, 0x84, 0xfd, 0xad, 0x3d, 0x72, 0xbd, 0x28, 0x3e,
  0x82, 0xe2, 0x02, 0xbe, 0xa6, 0xde, 0x29, 0x3e, 0x29, 0x9f, 0x44, 0xbe,
  0xdc, 0xcc, 0x9f, 0xbd, 0x3f, 0x13, 0x94, 0x3e, 0x74, 0xd2, 0x88, 0x3d,
  0x68, 0x1e, 0xaa, 0xbd, 0xd0, 0xdc, 0xa6, 0xbd, 0xac, 0x47, 0x97, 0x3d,
  0x59, 0x64, 0xb7, 0xbe, 0xec, 0x33, 0x97, 0xbe, 0x4a, 0x45, 0x32, 0xbe,
  0xc6, 0xec, 0x07, 0xbe, 0x01, 0x90, 0xe9, 0xbc, 0x32, 0x58, 0xab, 0x3d,
  0x8f, 0x4a, 0xc1, 0xbe, 0xf5, 0xa1, 0x20, 0xbe, 0x53, 0x84, 0x8a, 0xbe,
  0x72, 0x59, 0x70, 0x3e, 0xd3, 0xa9, 0x01, 0xbe, 0x82, 0x3f, 0x18, 0x3e,
  0x1e, 0xab, 0x90, 0x3e, 0x3c, 0xe3, 0x2a, 0xbe, 0x43, 0x20, 0x20, 0x3d,
  0x84, 0xfa, 0x5f, 0x3e, 0xaa, 0x13, 0x18, 0x3e, 0x9d, 0x53, 0xf2, 0x3d,
  0x22, 0xa5, 0x74, 0x3d, 0x62, 0x2d, 0x5b, 0x3d, 0x4e, 0x8d, 0x02, 0xbd,
  0x52, 0x29, 0xa5, 0x3e, 0x59, 0xcc, 0xa1, 0x3e, 0x74, 0xfa, 0xa8, 0xbe,
  0x48, 0xb9, 0x4d, 0xbe, 0x9f, 0xa6, 0x36, 0xbe, 0x70, 0x70, 0x74, 0xbe,
  0x57, 0x26, 0xa5, 0xbe, 0x47, 0xa6, 0x54, 0x3e, 0x6a, 0xfd, 0xff, 0xff,
  0x04, 0x00, 0x00, 0x00, 0x40, 0x00, 0x00, 0x00, 0x72, 0x56, 0x37, 0xbd,
  0x40, 0x3f, 0x1e, 0x3c, 0x9b, 0xea, 0x56, 0x3d, 0x86, 0x7e, 0xf8, 0xba,
  0x20, 0xa8, 0x47, 0xbd, 0xb9, 0xb0, 0x47, 0xbd, 0x56, 0x66, 0x1e, 0xbc,
  0xb7, 0x0d, 0x25, 0xbc, 0x00, 0x00, 0x00, 0x00, 0x3b, 0xd9, 0x1a, 0xbd,
  0x00, 0x00, 0x00, 0x00, 0xfe, 0x19, 0xa7, 0x3c, 0x7e, 0xd3, 0x48, 0xbd,
  0xc5, 0x50, 0x50, 0x3d, 0x00, 0x00, 0x00, 0x00, 0x56, 0xbb, 0x61, 0x3d,
  0xb6, 0xfd, 0xff, 0xff, 0x04, 0x00, 0x00, 0x00, 0x20, 0x00, 0x00, 0x00,
  0x67, 0x95, 0x7e, 0xbc, 0xf1, 0x29, 0x44, 0xbd, 0x51, 0x2b, 0x69, 0x3d,
  0x21, 0xc4, 0x43, 0xbd, 0x5a, 0xc3, 0x58, 0x3d, 0xbb, 0xb9, 0x43, 0xbd,
  0xd1, 0xc7, 0x61, 0x3d, 0x0a, 0xf0, 0x20, 0x3b, 0xe2, 0xfd, 0xff, 0xff,
  0x04, 0x00, 0x00, 0x00, 0x04, 0x00, 0x00, 0x00, 0x34, 0x13, 0x45, 0x3d,
  0xf2, 0xfd, 0xff, 0xff, 0x04, 0x00, 0x00, 0x00, 0x00, 0x02, 0x00, 0x00,
  0xdd, 0x15, 0x8f, 0xbe, 0x54, 0x72, 0x08, 0x3e, 0xde, 0x5e, 0x42, 0xbe,
  0xf1, 0xca, 0x36, 0x3e, 0x6c, 0xe0, 0x97, 0xbe, 0x68, 0xb9, 0x05, 0x3d,
  0x35, 0xbf, 0xc1, 0xbc, 0x65, 0x51, 0x9c, 0xbe, 0x64, 0x2e, 0xcf, 0x3e,
  0xa5, 0x7c, 0x2e, 0x3d, 0xd8, 0xc9, 0xfd, 0xbe, 0x6f, 0xe2, 0xef, 0x3e,
  0xc2, 0x33, 0x00, 0xbf, 0x22, 0x4b, 0x3e, 0x3e, 0x7c, 0x2a, 0x99, 0xbe,
  0x94, 0xa4, 0xa7, 0x3d, 0xcf, 0x5c, 0x7b, 0x3e, 0xe2, 0x05, 0xe2, 0x3e,
  0xf2, 0xdc, 0x31, 0x3e, 0x64, 0xa3, 0xd5, 0x3e, 0x88, 0xb4, 0x63, 0x3e,
  0xb8, 0x84, 0x93, 0x3e, 0x9f, 0xd3, 0xe7, 0x3d, 0x73, 0xe6, 0x42, 0x3e,
  0x54, 0x03, 0xcd, 0x3e, 0x56, 0xcb, 0x8b, 0xbe, 0x60, 0x9f, 0xf6, 0xbe,
  0xa0, 0x46, 0xf0, 0xbe, 0xac, 0x1c, 0xd9, 0xbe, 0xfe, 0xe3, 0x03, 0xbe,
  0x3c, 0x46, 0xb9, 0xbe, 0x04, 0xb3, 0xfa, 0xbe, 0x9b, 0x65, 0xde, 0xbc,
  0xd4, 0xc3, 0xcb, 0xbe, 0x40, 0xbd, 0xf7, 0x3e, 0x58, 0x2f, 0xae, 0xbe,
  0xdd, 0xeb, 0x17, 0xbe, 0x0c, 0xf6, 0xaa, 0x3e, 0x6b, 0x05, 0xdd, 0x3e,
  0x4d, 0xc0, 0xd1, 0x3e, 0x84, 0xda, 0x82, 0x3e, 0x8a, 0x25, 0xbf, 0xbd,
  0xf0, 0xae, 0x87, 0xbe, 0x9a, 0x85, 0x89, 0x3e, 0xd7, 0x20, 0xa6, 0xbe,
  0xf9, 0xbc, 0xc3, 0xbe, 0xf0, 0x73, 0xae, 0x3e, 0x8f, 0x80, 0xbb, 0x3e,
  0xc6, 0x1c, 0x98, 0x3e, 0x2d, 0x77, 0x72, 0xbe, 0x4a, 0x59, 0xec, 0xbe,
  0xd4, 0x68, 0x98, 0x3c, 0xdc, 0x32, 0x19, 0x3e, 0xbe, 0x42, 0xaf, 0x3e,
  0xdf, 0x36, 0xea, 0x3e, 0x3c, 0xbd, 0xb1, 0x3e, 0x28, 0x15, 0x17, 0x3e,
  0xc5, 0x09, 0xb2, 0xbd, 0x5c, 0xb4, 0xd5, 0xbe, 0x57, 0x97, 0xbf, 0x3e,
  0x74, 0x35, 0x75, 0x3e, 0x49, 0x1f, 0xc2, 0xbe, 0xc0, 0x89, 0xa4, 0xbd,
  0x86, 0xad, 0xe9, 0x3c, 0x05, 0xca, 0xa9, 0x3e, 0x38, 0xc6, 0x46, 0xbe,
  0xf0, 0xd0, 0x67, 0x3e, 0x31, 0xba, 0x0f, 0xbe, 0x8d, 0x1d, 0x8f, 0xbd,
  0x31, 0xd5, 0xc3, 0x3e, 0x1e, 0xa8, 0xfa, 0xbe, 0xe1, 0xea, 0x4b, 0xbd,
  0x40, 0x1a, 0x30, 0xbd, 0x53, 0x86, 0xb4, 0xbe, 0x90, 0x54, 0x31, 0xbe,
  0x0b, 0x58, 0x64, 0xbe, 0x40, 0x8e, 0xe0, 0xbe, 0x77, 0x45, 0xe6, 0x3e,
  0xc0, 0x03, 0x04, 0xbd, 0x33, 0x73, 0x99, 0xbd, 0xc3, 0x4c, 0xd7, 0x3e,
  0xc3, 0xec, 0xe3, 0xbe, 0x2d, 0x83, 0x68, 0xbe, 0x74, 0x89, 0x9c, 0xbe,
  0x8b, 0x7f, 0x00, 0xbd, 0xb5, 0x83, 0xe6, 0x3e, 0x9a, 0x97, 0xa5, 0xbe,
  0xfc, 0x59, 0x1c, 0xbe, 0xdc, 0xa5, 0xeb, 0x3e, 0xf0, 0xe0, 0xd1, 0x3e,
  0x80, 0x5c, 0xcc, 0x3c, 0x3c, 0xd2, 0x2f, 0x3e, 0xe3, 0x33, 0x99, 0x3e,
  0xfd, 0xc2, 0xa1, 0xbd, 0x98, 0x62, 0xd8, 0x3e, 0x0e, 0x33, 0x63, 0x3e,
  0xdc, 0x7b, 0x8e, 0x3e, 0x24, 0x22, 0x6f, 0x3e, 0x05, 0x63, 0xfb, 0x3e,
  0xce, 0x19, 0xb6, 0xbd, 0x95, 0xa8, 0x4c, 0xbe, 0xb8, 0x28, 0x97, 0xbe,
  0x2e, 0xf7, 0xc6, 0xbe, 0xdf, 0xe3, 0xdf, 0xbe, 0x78, 0xd5, 0x33, 0xbe,
  0x18, 0xd3, 0xe4, 0xbe, 0x60, 0xf2, 0x3f, 0x3d, 0x81, 0xaf, 0xd1, 0x3e,
  0xe6, 0x23, 0x52, 0xbe, 0x96, 0x96, 0x79, 0x3e, 0x24, 0x2f, 0xdb, 0x3e,
  0x4b, 0xb6, 0xcf, 0x3e, 0xb8, 0x46, 0xd9, 0xbe, 0xc0, 0xa9, 0xeb, 0xbd,
  0x05, 0xc5, 0xa1, 0x3e, 0x50, 0x7d, 0x8f, 0x3e, 0x74, 0x02, 0xb0, 0xbe,
  0xac, 0x6b, 0xe3, 0xbe, 0xd8, 0x5d, 0xee, 0x3e, 0x34, 0xf7, 0xec, 0xbe,
  0x80, 0x7c, 0x46, 0xbd, 0x9d, 0xab, 0xe7, 0xbe, 0xac, 0x02, 0xed, 0xbe,
  0x3e, 0x62, 0x3b, 0x3c, 0x0f, 0x01, 0xe9, 0xbd, 0xa1, 0x4b, 0xa1, 0x3e,
  0xb0, 0xec, 0x9a, 0x3e, 0xaf, 0xdf, 0x01, 0xbd, 0x00, 0x00, 0x06, 0x00,
  0x08, 0x00, 0x04, 0x00, 0x06, 0x00, 0x00, 0x00, 0x04, 0x00, 0x00, 0x00,
  0x20, 0x00, 0x00, 0x00, 0x27, 0x6c, 0x0c, 0xbf, 0x63, 0x43, 0x29, 0xbf,
  0x9b, 0x6f, 0xb0, 0x3d, 0xdd, 0x1a, 0x08, 0xbf, 0x3c, 0xef, 0xd9, 0x3d,
  0x76, 0x5a, 0x29, 0xbf, 0x4f, 0x34, 0x23, 0x3f, 0x0b, 0x93, 0x01, 0xbf,
  0x84, 0xfa, 0xff, 0xff, 0x88, 0xfa, 0xff, 0xff, 0x0f, 0x00, 0x00, 0x00,
  0x4d, 0x4c, 0x49, 0x52, 0x20, 0x43, 0x6f, 0x6e, 0x76, 0x65, 0x72, 0x74,
  0x65, 0x64, 0x2e, 0x00, 0x01, 0x00, 0x00, 0x00, 0x14, 0x00, 0x00, 0x00,
  0x00, 0x00, 0x0e, 0x00, 0x18, 0x00, 0x14, 0x00, 0x10, 0x00, 0x0c, 0x00,
  0x08, 0x00, 0x04, 0x00, 0x0e, 0x00, 0x00, 0x00, 0x14, 0x00, 0x00, 0x00,
  0x1c, 0x00, 0x00, 0x00, 0x08, 0x01, 0x00, 0x00, 0x0c, 0x01, 0x00, 0x00,
  0x10, 0x01, 0x00, 0x00, 0x04, 0x00, 0x00, 0x00, 0x6d, 0x61, 0x69, 0x6e,
  0x00, 0x00, 0x00, 0x00, 0x04, 0x00, 0x00, 0x00, 0xb0, 0x00, 0x00, 0x00,
  0x68, 0x00, 0x00, 0x00, 0x34, 0x00, 0x00, 0x00, 0x10, 0x00, 0x00, 0x00,
  0x00, 0x00, 0x0a, 0x00, 0x10, 0x00, 0x0c, 0x00, 0x08, 0x00, 0x04, 0x00,
  0x0a, 0x00, 0x00, 0x00, 0x0c, 0x00, 0x00, 0x00, 0x10, 0x00, 0x00, 0x00,
  0x01, 0x00, 0x00, 0x00, 0x01, 0x00, 0x00, 0x00, 0x0a, 0x00, 0x00, 0x00,
  0x01, 0x00, 0x00, 0x00, 0x09, 0x00, 0x00, 0x00, 0x9a, 0xff, 0xff, 0xff,
  0x10, 0x00, 0x00, 0x00, 0x00, 0x00, 0x00, 0x08, 0x0c, 0x00, 0x00, 0x00,
  0x10, 0x00, 0x00, 0x00, 0x30, 0xfb, 0xff, 0xff, 0x01, 0x00, 0x00, 0x00,
  0x09, 0x00, 0x00, 0x00, 0x03, 0x00, 0x00, 0x00, 0x08, 0x00, 0x00, 0x00,
  0x01, 0x00, 0x00, 0x00, 0x03, 0x00, 0x00, 0x00, 0xca, 0xff, 0xff, 0xff,
  0x10, 0x00, 0x00, 0x00, 0x00, 0x00, 0x00, 0x08, 0x10, 0x00, 0x00, 0x00,
  0x14, 0x00, 0x00, 0x00, 0xba, 0xff, 0xff, 0xff, 0x00, 0x00, 0x00, 0x01,
  0x01, 0x00, 0x00, 0x00, 0x08, 0x00, 0x00, 0x00, 0x03, 0x00, 0x00, 0x00,
  0x07, 0x00, 0x00, 0x00, 0x02, 0x00, 0x00, 0x00, 0x04, 0x00, 0x00, 0x00,
  0x00, 0x00, 0x0e, 0x00, 0x16, 0x00, 0x00, 0x00, 0x10, 0x00, 0x0c, 0x00,
  0x0b, 0x00, 0x04, 0x00, 0x0e, 0x00, 0x00, 0x00, 0x18, 0x00, 0x00, 0x00,
  0x00, 0x00, 0x00, 0x08, 0x18, 0x00, 0x00, 0x00, 0x1c, 0x00, 0x00, 0x00,
  0x00, 0x00, 0x06, 0x00, 0x08, 0x00, 0x07, 0x00, 0x06, 0x00, 0x00, 0x00,
  0x00, 0x00, 0x00, 0x01, 0x01, 0x00, 0x00, 0x00, 0x07, 0x00, 0x00, 0x00,
  0x03, 0x00, 0x00, 0x00, 0x00, 0x00, 0x00, 0x00, 0x06, 0x00, 0x00, 0x00,
  0x05, 0x00, 0x00, 0x00, 0x01, 0x00, 0x00, 0x00, 0x0a, 0x00, 0x00, 0x00,
  0x01, 0x00, 0x00, 0x00, 0x00, 0x00, 0x00, 0x00, 0x0b, 0x00, 0x00, 0x00,
  0xf8, 0x03, 0x00, 0x00, 0xa0, 0x03, 0x00, 0x00, 0x48, 0x03, 0x00, 0x00,
  0x0c, 0x03, 0x00, 0x00, 0xb0, 0x02, 0x00, 0x00, 0x58, 0x02, 0x00, 0x00,
  0x0c, 0x02, 0x00, 0x00, 0x78, 0x01, 0x00, 0x00, 0xdc, 0x00, 0x00, 0x00,
  0x60, 0x00, 0x00, 0x00, 0x04, 0x00, 0x00, 0x00, 0x4a, 0xfc, 0xff, 0xff,
  0x00, 0x00, 0x00, 0x01, 0x14, 0x00, 0x00, 0x00, 0x1c, 0x00, 0x00, 0x00,
  0x1c, 0x00, 0x00, 0x00, 0x0b, 0x00, 0x00, 0x00, 0x34, 0x00, 0x00, 0x00,
  0x02, 0x00, 0x00, 0x00, 0xff, 0xff, 0xff, 0xff, 0x01, 0x00, 0x00, 0x00,
  0x34, 0xfc, 0xff, 0xff, 0x1b, 0x00, 0x00, 0x00, 0x53, 0x74, 0x61, 0x74,
  0x65, 0x66, 0x75, 0x6c, 0x50, 0x61, 0x72, 0x74, 0x69, 0x74, 0x69, 0x6f,
  0x6e, 0x65, 0x64, 0x43, 0x61, 0x6c, 0x6c, 0x5f, 0x31, 0x3a, 0x30, 0x00,
  0x02, 0x00, 0x00, 0x00, 0x01, 0x00, 0x00, 0x00, 0x01, 0x00, 0x00, 0x00,
  0xa2, 0xfc, 0xff, 0xff, 0x00, 0x00, 0x00, 0x01, 0x14, 0x00, 0x00, 0x00,
  0x1c, 0x00, 0x00, 0x00, 0x1c, 0x00, 0x00, 0x00, 0x0a, 0x00, 0x00, 0x00,
  0x54, 0x00, 0x00, 0x00, 0x02, 0x00, 0x00, 0x00, 0xff, 0xff, 0xff, 0xff,
  0x01, 0x00, 0x00, 0x00, 0x8c, 0xfc, 0xff, 0xff, 0x38, 0x00, 0x00, 0x00,
  0x73, 0x65, 0x71, 0x75, 0x65, 0x6e, 0x74, 0x69, 0x61, 0x6c, 0x5f, 0x31,
  0x2f, 0x64, 0x65, 0x6e, 0x73, 0x65, 0x5f, 0x32, 0x5f, 0x31, 0x2f, 0x4d,
  0x61, 0x74, 0x4d, 0x75, 0x6c, 0x3b, 0x73, 0x65, 0x71, 0x75, 0x65, 0x6e,
  0x74, 0x69, 0x61, 0x6c, 0x5f, 0x31, 0x2f, 0x64, 0x65, 0x6e, 0x73, 0x65,
  0x5f, 0x32, 0x5f, 0x31, 0x2f, 0x41, 0x64, 0x64, 0x00, 0x00, 0x00, 0x00,
  0x02, 0x00, 0x00, 0x00, 0x01, 0x00, 0x00, 0x00, 0x01, 0x00, 0x00, 0x00,
  0x1a, 0xfd, 0xff, 0xff, 0x00, 0x00, 0x00, 0x01, 0x14, 0x00, 0x00, 0x00,
  0x1c, 0x00, 0x00, 0x00, 0x1c, 0x00, 0x00, 0x00, 0x09, 0x00, 0x00, 0x00,
  0x74, 0x00, 0x00, 0x00, 0x02, 0x00, 0x00, 0x00, 0xff, 0xff, 0xff, 0xff,
  0x08, 0x00, 0x00, 0x00, 0x04, 0xfd, 0xff, 0xff, 0x58, 0x00, 0x00, 0x00,
  0x73, 0x65, 0x71, 0x75, 0x65, 0x6e, 0x74, 0x69, 0x61, 0x6c, 0x5f, 0x31,
  0x2f, 0x64, 0x65, 0x6e, 0x73, 0x65, 0x5f, 0x31, 0x5f, 0x32, 0x2f, 0x4d,
  0x61, 0x74, 0x4d, 0x75, 0x6c, 0x3b, 0x73, 0x65, 0x71, 0x75, 0x65, 0x6e,
  0x74, 0x69, 0x61, 0x6c, 0x5f, 0x31, 0x2f, 0x64, 0x65, 0x6e, 0x73, 0x65,
  0x5f, 0x31, 0x5f, 0x32, 0x2f, 0x52, 0x65, 0x6c, 0x75, 0x3b, 0x73, 0x65,
  0x71, 0x75, 0x65, 0x6e, 0x74, 0x69, 0x61, 0x6c, 0x5f, 0x31, 0x2f, 0x64,
  0x65, 0x6e, 0x73, 0x65, 0x5f, 0x31, 0x5f, 0x32, 0x2f, 0x42, 0x69, 0x61,
  0x73, 0x41, 0x64, 0x64, 0x00, 0x00, 0x00, 0x00, 0x02, 0x00, 0x00, 0x00,
  0x01, 0x00, 0x00, 0x00, 0x08, 0x00, 0x00, 0x00, 0xb2, 0xfd, 0xff, 0xff,
  0x00, 0x00, 0x00, 0x01, 0x14, 0x00, 0x00, 0x00, 0x1c, 0x00, 0x00, 0x00,
  0x1c, 0x00, 0x00, 0x00, 0x08, 0x00, 0x00, 0x00, 0x6c, 0x00, 0x00, 0x00,
  0x02, 0x00, 0x00, 0x00, 0xff, 0xff, 0xff, 0xff, 0x10, 0x00, 0x00, 0x00,
  0x9c, 0xfd, 0xff, 0xff, 0x52, 0x00, 0x00, 0x00, 0x73, 0x65, 0x71, 0x75,
  0x65, 0x6e, 0x74, 0x69, 0x61, 0x6c, 0x5f, 0x31, 0x2f, 0x64, 0x65, 0x6e,
  0x73, 0x65, 0x5f, 0x31, 0x2f, 0x4d, 0x61, 0x74, 0x4d, 0x75, 0x6c, 0x3b,
  0x73, 0x65, 0x71, 0x75, 0x65, 0x6e, 0x74, 0x69, 0x61, 0x6c, 0x5f, 0x31,
  0x2f, 0x64, 0x65, 0x6e, 0x73, 0x65, 0x5f, 0x31, 0x2f, 0x52, 0x65, 0x6c,
  0x75, 0x3b, 0x73, 0x65, 0x71, 0x75, 0x65, 0x6e, 0x74, 0x69, 0x61, 0x6c,
  0x5f, 0x31, 0x2f, 0x64, 0x65, 0x6e, 0x73, 0x65, 0x5f, 0x31, 0x2f, 0x42,
  0x69, 0x61, 0x73, 0x41, 0x64, 0x64, 0x00, 0x00, 0x02, 0x00, 0x00, 0x00,
  0x01, 0x00, 0x00, 0x00, 0x10, 0x00, 0x00, 0x00, 0x96, 0xfe, 0xff, 0xff,
  0x00, 0x00, 0x00, 0x01, 0x10, 0x00, 0x00, 0x00, 0x10, 0x00, 0x00, 0x00,
  0x07, 0x00, 0x00, 0x00, 0x28, 0x00, 0x00, 0x00, 0x1c, 0xfe, 0xff, 0xff,
  0x1b, 0x00, 0x00, 0x00, 0x73, 0x65, 0x71, 0x75, 0x65, 0x6e, 0x74, 0x69,
  0x61, 0x6c, 0x5f, 0x31, 0x2f, 0x64, 0x65, 0x6e, 0x73, 0x65, 0x5f, 0x31,
  0x2f, 0x4d, 0x61, 0x74, 0x4d, 0x75, 0x6c, 0x00, 0x02, 0x00, 0x00, 0x00,
  0x10, 0x00, 0x00, 0x00, 0x1e, 0x00, 0x00, 0x00, 0xde, 0xfe, 0xff, 0xff,
  0x00, 0x00, 0x00, 0x01, 0x10, 0x00, 0x00, 0x00, 0x10, 0x00, 0x00, 0x00,
  0x06, 0x00, 0x00, 0x00, 0x38, 0x00, 0x00, 0x00, 0x64, 0xfe, 0xff, 0xff,
  0x2b, 0x00, 0x00, 0x00, 0x73, 0x65, 0x71, 0x75, 0x65, 0x6e, 0x74, 0x69,
  0x61, 0x6c, 0x5f, 0x31, 0x2f, 0x64, 0x65, 0x6e, 0x73, 0x65, 0x5f, 0x31,
  0x2f, 0x42, 0x69, 0x61, 0x73, 0x41, 0x64, 0x64, 0x2f, 0x52, 0x65, 0x61,
  0x64, 0x56, 0x61, 0x72, 0x69, 0x61, 0x62, 0x6c, 0x65, 0x4f, 0x70, 0x00,
  0x01, 0x00, 0x00, 0x00, 0x10, 0x00, 0x00, 0x00, 0x32, 0xff, 0xff, 0xff,
  0x00, 0x00, 0x00, 0x01, 0x10, 0x00, 0x00, 0x00, 0x10, 0x00, 0x00, 0x00,
  0x05, 0x00, 0x00, 0x00, 0x3c, 0x00, 0x00, 0x00, 0xb8, 0xfe, 0xff, 0xff,
  0x2d, 0x00, 0x00, 0x00, 0x73, 0x65, 0x71, 0x75, 0x65, 0x6e, 0x74, 0x69,
  0x61, 0x6c, 0x5f, 0x31, 0x2f, 0x64, 0x65, 0x6e, 0x73, 0x65, 0x5f, 0x31,
  0x5f, 0x32, 0x2f, 0x42, 0x69, 0x61, 0x73, 0x41, 0x64, 0x64, 0x2f, 0x52,
  0x65, 0x61, 0x64, 0x56, 0x61, 0x72, 0x69, 0x61, 0x62, 0x6c, 0x65, 0x4f,
  0x70, 0x00, 0x00, 0x00, 0x01, 0x00, 0x00, 0x00, 0x08, 0x00, 0x00, 0x00,
  0x8a, 0xff, 0xff, 0xff, 0x00, 0x00, 0x00, 0x01, 0x10, 0x00, 0x00, 0x00,
  0x10, 0x00, 0x00, 0x00, 0x04, 0x00, 0x00, 0x00, 0x1c, 0x00, 0x00, 0x00,
  0x10, 0xff, 0xff, 0xff, 0x0f, 0x00, 0x00, 0x00, 0x61, 0x72, 0x69, 0x74,
  0x68, 0x2e, 0x63, 0x6f, 0x6e, 0x73, 0x74, 0x61, 0x6e, 0x74, 0x32, 0x00,
  0x01, 0x00, 0x00, 0x00, 0x01, 0x00, 0x00, 0x00, 0xc2, 0xff, 0xff, 0xff,
  0x00, 0x00, 0x00, 0x01, 0x10, 0x00, 0x00, 0x00, 0x10, 0x00, 0x00, 0x00,
  0x03, 0x00, 0x00, 0x00, 0x1c, 0x00, 0x00, 0x00, 0x48, 0xff, 0xff, 0xff,
  0x0f, 0x00, 0x00, 0x00, 0x61, 0x72, 0x69, 0x74, 0x68, 0x2e, 0x63, 0x6f,
  0x6e, 0x73, 0x74, 0x61, 0x6e, 0x74, 0x31, 0x00, 0x02, 0x00, 0x00, 0x00,
  0x08, 0x00, 0x00, 0x00, 0x10, 0x00, 0x00, 0x00, 0x00, 0x00, 0x16, 0x00,
  0x18, 0x00, 0x14, 0x00, 0x00, 0x00, 0x10, 0x00, 0x0c, 0x00, 0x08, 0x00,
  0x00, 0x00, 0x00, 0x00, 0x00, 0x00, 0x07, 0x00, 0x16, 0x00, 0x00, 0x00,
  0x00, 0x00, 0x00, 0x01, 0x10, 0x00, 0x00, 0x00, 0x10, 0x00, 0x00, 0x00,
  0x02, 0x00, 0x00, 0x00, 0x1c, 0x00, 0x00, 0x00, 0x9c, 0xff, 0xff, 0xff,
  0x0e, 0x00, 0x00, 0x00, 0x61, 0x72, 0x69, 0x74, 0x68, 0x2e, 0x63, 0x6f,
  0x6e, 0x73, 0x74, 0x61, 0x6e, 0x74, 0x00, 0x00, 0x02, 0x00, 0x00, 0x00,
  0x01, 0x00, 0x00, 0x00, 0x08, 0x00, 0x00, 0x00, 0x00, 0x00, 0x16, 0x00,
  0x1c, 0x00, 0x18, 0x00, 0x00, 0x00, 0x14, 0x00, 0x10, 0x00, 0x0c, 0x00,
  0x00, 0x00, 0x00, 0x00, 0x08, 0x00, 0x07, 0x00, 0x16, 0x00, 0x00, 0x00,
  0x00, 0x00, 0x00, 0x01, 0x14, 0x00, 0x00, 0x00, 0x20, 0x00, 0x00, 0x00,
  0x20, 0x00, 0x00, 0x00, 0x01, 0x00, 0x00, 0x00, 0x3c, 0x00, 0x00, 0x00,
  0x02, 0x00, 0x00, 0x00, 0xff, 0xff, 0xff, 0xff, 0x1e, 0x00, 0x00, 0x00,
  0x04, 0x00, 0x04, 0x00, 0x04, 0x00, 0x00, 0x00, 0x1d, 0x00, 0x00, 0x00,
  0x73, 0x65, 0x72, 0x76, 0x69, 0x6e, 0x67, 0x5f, 0x64, 0x65, 0x66, 0x61,
  0x75, 0x6c, 0x74, 0x5f, 0x69, 0x6e, 0x70, 0x75, 0x74, 0x5f, 0x6c, 0x61,
  0x79, 0x65, 0x72, 0x3a, 0x30, 0x00, 0x00, 0x00, 0x02, 0x00, 0x00, 0x00,
  0x01, 0x00, 0x00, 0x00, 0x1e, 0x00, 0x00, 0x00, 0x02, 0x00, 0x00, 0x00,
  0x20, 0x00, 0x00, 0x00, 0x04, 0x00, 0x00, 0x00, 0xf4, 0xff, 0xff, 0xff,
  0x0e, 0x00, 0x00, 0x00, 0x00, 0x00, 0x00, 0x0e, 0x0c, 0x00, 0x0c, 0x00,
  0x0b, 0x00, 0x00, 0x00, 0x00, 0x00, 0x04, 0x00, 0x0c, 0x00, 0x00, 0x00,
  0x09, 0x00, 0x00, 0x00, 0x00, 0x00, 0x00, 0x09
};
unsigned int fraud_model_tflite_len = 4628;
